#include "uno_model.h"


const uint8_t conv2d_0_weight[] PROGMEM = {
    0x2F, 0x20, 0x1D, 0x20, 0x35, 0xDF, 0x41, 0x15, 0xDE, 0x4E, 0xD1, 0xED, 0x1F, 0x0E, 0x11, 0xEC,
    0x33, 0xD3, 0x71, 0xF1, 0x5F, 0xF3, 0x1E, 0xF0, 0xFD,
};

const uint8_t conv2d_0_bias[] PROGMEM = {
    0xF9, 0xFF, 0xFF, 0xFF, 0xF1, 0xFF, 0xFF, 0xFF,
};

const uint8_t conv2d_0_output_scale[] = {
    0x18, 0xDD, 0x41, 0x3F,
};

const uint8_t conv2d_0_output_zero_point[] = {
    0xFE,
};

const uint8_t conv2d_0_input_zero_point[] = {
    0xF8,
};

const uint8_t conv2d_0_bias_scale[] = {
    0xF6, 0xEB, 0xAD, 0x3C,
};

const uint8_t conv2d_1_weight[] PROGMEM = {
    0xFE, 0x11, 0xB3, 0xEC, 0x12, 0xFE, 0xF0, 0x0D, 0x55, 0xF3, 0x52, 0x23, 0xC1, 0xCE, 0x0E, 0xFF,
    0xCC, 0xFE, 0xF1, 0xDD, 0x21, 0x22, 0x00, 0xF0, 0x10, 0xED, 0xFF, 0xDD, 0x11, 0xCF, 0x2E, 0xD2,
    0xEB, 0x01, 0xEC, 0xFF, 0xFE, 0xE1, 0x1E, 0x02, 0xEC, 0x13, 0xD0, 0x41, 0x04, 0x10, 0x24, 0x0E,
    0x10, 0xFF, 0x01, 0xF0, 0x20, 0x23, 0x11, 0xE0, 0xDD, 0xDD, 0xCC, 0xFE, 0x2F, 0x54, 0x05, 0x0F,
    0x20, 0x0F, 0x11, 0x10, 0xDF, 0xDB, 0xEF, 0x0E, 0x20, 0x34, 0x12, 0x10, 0x41, 0x03, 0x33, 0xF2,
    0x23, 0x01, 0x0D, 0xDF, 0xDD, 0xEE, 0xFE, 0x01, 0xFF, 0x00, 0xFF, 0xEF, 0x0E, 0xEF, 0x01, 0x10,
    0x33, 0x33, 0x12, 0x11, 0xF1, 0x00, 0x10, 0xFE, 0x11, 0xD0, 0x3F, 0xE1, 0xFD, 0x14, 0x0F, 0x30,
    0xE1, 0x11, 0x10, 0x20, 0x13, 0x12, 0x33, 0x0F, 0x32, 0xE1, 0x2F, 0x34, 0x1F, 0xD1, 0x0E, 0x21,
    0xFF, 0xFE, 0x33, 0xE1, 0x3E, 0x23, 0x00, 0x44, 0x23, 0x12, 0x33, 0xF2, 0x1D, 0x43, 0xD1, 0x1D,
    0x23, 0xCF, 0x0E, 0x03, 0xEF, 0x0E, 0x00, 0xEE, 0x20, 0x22, 0x01, 0x33, 0x02, 0x0F, 0xEE, 0xFD,
    0xF1, 0xEF, 0x00, 0x00, 0x74, 0x11, 0x64, 0x02, 0x0F, 0xED, 0xBC, 0xBA, 0x02, 0xEF, 0x0F, 0x00,
    0x00, 0xFF, 0x00, 0xF1, 0x1F, 0x0F, 0x01, 0x11, 0x21, 0x24, 0x23, 0xF2, 0xED, 0xFE, 0x00, 0xFF,
    0x2E, 0x11, 0xF1, 0x00, 0x11, 0x11, 0x01, 0x01, 0x03, 0xDF, 0x2F, 0x43, 0x03, 0x0E, 0x53, 0xE1,
    0xF0, 0x12, 0xFD, 0xEF, 0xF1, 0xEB, 0x11, 0x12, 0xBD, 0x2E, 0x03, 0xDE, 0x32, 0x23, 0xDF, 0x11,
    0x12,
};

const uint8_t conv2d_1_bias[] PROGMEM = {
    0xE7, 0xFF, 0xFF, 0xFF, 0xF0, 0xFF, 0xFF, 0xFF, 0xF2, 0xFF, 0xFF, 0xFF, 0xFA, 0xFF, 0xFF, 0xFF,
    0x0B, 0x00, 0x00, 0x00, 0x07, 0x00, 0x00, 0x00, 0xFF, 0xFF, 0xFF, 0xFF, 0x0C, 0x00, 0x00, 0x00,
    0xF8, 0xFF, 0xFF, 0xFF,
};

const uint8_t conv2d_1_output_scale[] = {
    0xEE, 0xF2, 0x00, 0x40,
};

const uint8_t conv2d_1_output_zero_point[] = {
    0x00,
};

const uint8_t conv2d_1_input_zero_point[] = {
    0xFE,
};

const uint8_t conv2d_1_bias_scale[] = {
    0x8E, 0xD1, 0x82, 0x3D,
};

const uint8_t linear_0_weight[] PROGMEM = {
    0x00, 0x11, 0x00, 0x10, 0xF1, 0xFF, 0x02, 0x1E, 0x01, 0xFF, 0x01, 0xF0, 0x00, 0x00, 0xCE, 0x21,
    0x12, 0x21, 0x23, 0x11, 0x12, 0x01, 0x1F, 0x01, 0x0F, 0x11, 0x11, 0xE0, 0x00, 0xD0, 0x0F, 0x10,
    0x0E, 0xF0, 0xEF, 0x00, 0x0F, 0x00, 0xFF, 0xFF, 0x11, 0x21, 0x02, 0x12, 0x11, 0xF1, 0x0E, 0x00,
    0x11, 0x11, 0x11, 0xF0, 0x00, 0xF1, 0x21, 0xF1, 0x10, 0xD1, 0x10, 0x10, 0x21, 0x11, 0xF2, 0xFF,
    0x2F, 0xFF, 0xEE, 0xFF, 0xF0, 0xFF, 0xFD, 0x00, 0xC0, 0x0E, 0x01, 0x01, 0x10, 0xE2, 0xFE, 0xFF,
    0x00, 0xFF, 0x10, 0x0F, 0x11, 0xF0, 0x0F, 0x10, 0xF0, 0xFF, 0x02, 0x00, 0x01, 0xFF, 0x00, 0xFD,
    0x21, 0x00, 0x21, 0x11, 0x12, 0xFF, 0x20, 0x11, 0x11, 0xF0, 0x0F, 0xE0, 0xEE, 0x0F, 0xFE, 0x00,
    0xF1, 0x0F, 0x21, 0xED, 0x0F, 0xF1, 0x00, 0x11, 0x00, 0x00, 0xF2, 0x0F, 0x0F, 0x32, 0x23, 0x12,
    0x10, 0x23, 0xEF, 0x11, 0xF1, 0x0F, 0x01, 0xFF, 0x00, 0xFF, 0x0F, 0x10, 0x0E, 0x10, 0xE2, 0x0F,
    0x21, 0x00, 0x0F, 0xF1, 0xF0, 0xFF, 0xE0, 0xDD, 0x0D, 0xFE, 0xFF, 0x00, 0x00, 0x21, 0x02, 0x00,
    0x11, 0x21, 0x12, 0x21, 0x02, 0x02, 0x11, 0x0F, 0x00, 0xE0, 0x0F, 0x01, 0x0E, 0xF0, 0xEF, 0x00,
    0x0E, 0x20, 0x01, 0x00, 0x13, 0x01, 0x0F, 0x10, 0xF1, 0x11, 0x01, 0xDF, 0xFE, 0x21, 0xFD, 0x10,
    0xF4, 0x00, 0x30, 0x00, 0x11, 0x03, 0x10, 0x00, 0xED, 0xFF, 0xE0, 0xF0, 0xFF, 0x0F, 0xF1, 0x00,
    0x0F, 0x10, 0x10, 0x22, 0xE2, 0xEE, 0xEE, 0xFE, 0xFF, 0x1F, 0xF0, 0x00, 0x22, 0x11, 0x12, 0x01,
    0x11, 0x00, 0x00, 0xF0, 0xF0, 0xFF, 0xF0, 0xEF, 0x00, 0x0F, 0x0F, 0x01, 0x10, 0x12, 0x10, 0x21,
    0xF0, 0x00, 0x01, 0x0F, 0x00, 0x00, 0x00, 0x00, 0xFF, 0xFF, 0x00, 0x10, 0xF1, 0x00, 0x21, 0xFF,
    0xEF, 0x00, 0xF0, 0xEF, 0x02, 0x20, 0xFF, 0x11, 0x01, 0x11, 0x11, 0x11, 0x00, 0x10, 0x00, 0x10,
    0x12, 0x10, 0x32, 0x11, 0xF1, 0x0E, 0x00, 0xEE, 0xFF, 0xFF, 0x0F, 0x01, 0xFF, 0xF0, 0xEE, 0x0F,
    0x21, 0xE0, 0x11, 0xE0, 0x0D, 0x00, 0xEE, 0x01, 0x00, 0x20, 0x01, 0x01, 0x10, 0x22, 0x12, 0x11,
    0x21, 0x10, 0x10, 0x02, 0x11, 0x01, 0x11, 0x22, 0xF2, 0x00, 0xFF, 0xEF, 0xFF, 0xFF, 0x00, 0xF0,
    0x0F, 0x10, 0x21, 0x21, 0x43, 0x0E, 0x10, 0xF1, 0x10, 0x10, 0x1F, 0x21, 0x02, 0x1F, 0x33, 0x00,
    0x31, 0xF2, 0xFE, 0xFF, 0xFF, 0xEF, 0x1F, 0x01, 0x0F, 0x23, 0x11, 0xF0, 0x21, 0x00, 0x01, 0x10,
    0x01, 0xFE, 0x20, 0xFF, 0xF0, 0x0F, 0x11, 0x0F, 0x11, 0x11, 0xF1, 0xEF, 0xEF, 0xFF, 0xFF, 0x20,
    0x02, 0xFF, 0x12, 0xF0, 0xFF, 0xFF, 0x00, 0x23, 0x23, 0x02, 0x10, 0x01, 0x00, 0xF0, 0x3F, 0x12,
    0x21, 0xEE, 0x0F, 0x11, 0x10, 0x00, 0x00, 0xF0, 0xDE, 0xFF, 0x0F, 0x0F, 0x00, 0x00, 0xF0, 0xFF,
    0x22, 0x13, 0x31, 0x33, 0x12, 0x00, 0x01, 0xD0, 0xDD, 0xEE, 0x0F, 0xEF, 0x1D, 0xEF, 0xFF, 0x01,
    0x00, 0x10, 0x22, 0x11, 0x11, 0xE0, 0xFD, 0x00, 0x00, 0x11, 0x01, 0x01, 0x21, 0x01, 0xFF, 0xFF,
    0xFE, 0xEE, 0x0F, 0xFE, 0x0F, 0x10, 0x10, 0xF0, 0xF0, 0xFE, 0x2F, 0x11, 0x00, 0x0F, 0x01, 0xF1,
    0xF0, 0x0F, 0x0F, 0x11, 0xF1, 0x10, 0x01, 0x21, 0x00, 0x11, 0x00, 0x00, 0x0F, 0x01, 0x10, 0x21,
    0x11, 0x00, 0x11, 0x00, 0x00, 0x10, 0xFF, 0x00, 0x12, 0x10, 0x00, 0xFF, 0x10, 0x01, 0x11, 0x11,
    0x21, 0x12, 0x00, 0xF0, 0x0F, 0xFF, 0xFE, 0x0F, 0xF0, 0x00, 0xFE, 0x00, 0xF0, 0x00, 0x10, 0xFF,
    0xFF, 0x1F, 0xEF, 0xCD, 0x00, 0x01, 0x0F, 0x00, 0x00, 0x00, 0x11, 0x01, 0x21, 0x12, 0x31, 0x34,
    0x12, 0xF0, 0xFF, 0x00, 0x10, 0x2E, 0x11, 0x01, 0xF0, 0x0F, 0xCF, 0xED, 0x0F, 0x10, 0x10, 0x01,
    0x00, 0x01, 0x00, 0x0F, 0x1F, 0xEF, 0xEE, 0xF0, 0xFE, 0x1F, 0x00, 0x01, 0x0F, 0x11, 0x02, 0x11,
    0x22, 0xEE, 0xFE, 0xD0, 0xAB, 0xCB, 0x11, 0x01, 0x10, 0x10, 0x10, 0x01, 0xFF, 0x00, 0x00, 0xDE,
    0xFE, 0xDF, 0x0D, 0x10, 0x01, 0x0F, 0xF0, 0xFE, 0x00, 0x00, 0x11, 0x11, 0x00, 0x01, 0x11, 0xFF,
    0xDF, 0x0D, 0x00, 0xFF, 0x11, 0x00, 0x10, 0x11, 0x10, 0x11, 0x01, 0x00, 0x00, 0xF0, 0xFE, 0xF0,
    0xED, 0x00, 0xEF, 0x00, 0xE0, 0x1E, 0xF0, 0xDE, 0xF0, 0x0F, 0x01, 0x00, 0x21, 0x0E, 0x01, 0xF1,
    0x00, 0xFF, 0x0F, 0x10, 0x21, 0x12, 0x01, 0x12, 0x00, 0x11, 0xFF, 0x1F, 0xDF, 0x0F, 0xF1, 0x00,
    0x21, 0xF0, 0x0F, 0x11, 0xF1, 0x10, 0x12, 0xFF, 0x01, 0xF0, 0x10, 0xF0, 0x0F, 0xE1, 0x1F, 0x11,
    0x0F, 0xF0, 0xFE, 0xEF, 0xDD, 0x0F, 0xF0, 0x0F, 0xF0, 0xF0, 0x22, 0x21, 0x21, 0x00, 0x11, 0x1F,
    0x11, 0xF0, 0x00, 0x00, 0xF0, 0xFF, 0x0E, 0x21, 0x32, 0x00, 0x11, 0x12, 0x0F, 0x00, 0xF1, 0xFF,
    0x0F, 0xEF, 0xFE, 0x13, 0xFF, 0x3F, 0xF1, 0x00, 0x12, 0xF0, 0x00, 0xFF, 0x1F, 0xF0, 0xEF, 0x0F,
    0x20, 0x11, 0x23, 0x00, 0x00, 0x00, 0x00, 0xF0, 0x00, 0x00, 0x11, 0x11, 0x00, 0xEE, 0x2F, 0x01,
    0x00, 0x01, 0x00, 0x00, 0x00, 0x00, 0xFF, 0xFF, 0x51, 0x13, 0x00, 0x13, 0xF0, 0x2F, 0x11, 0x10,
    0x01, 0x10, 0x01, 0x01, 0x01, 0xFE, 0x00, 0xE0, 0x0F, 0x10, 0x0F, 0x10, 0x12, 0x00, 0x21, 0x01,
    0x00, 0x01, 0x0F, 0x0F, 0xFF, 0x0F, 0xD1, 0x0F, 0x10, 0x0F, 0x01, 0x01, 0x00, 0x00, 0xF1, 0xFF,
    0x0F, 0x00, 0x0F, 0x02, 0x0F, 0x1E, 0xFF, 0xFF, 0x00, 0xFF, 0x21, 0x0F, 0xF0, 0x02, 0x00, 0x10,
    0x10, 0x21, 0x00, 0x11, 0x02, 0x01, 0xFE, 0x14, 0xF1, 0x0E, 0xF0, 0xEF, 0x0F, 0x00, 0xE0, 0x11,
    0x11, 0xFF, 0x00, 0xFF, 0x21, 0xF1, 0x1E, 0x01, 0xF1, 0x2F, 0xF1, 0xFE, 0x10, 0xEF, 0x1F, 0x00,
    0xF0, 0x0F, 0xE0, 0x0F, 0x00, 0xFE, 0x00, 0xF0, 0x0F, 0xFF, 0x00, 0x00, 0xE0, 0x1F, 0xF0, 0xFD,
    0x10, 0xE0, 0xDD, 0xEE, 0xCD, 0xDD, 0xEE, 0xFE, 0x00, 0xF0, 0x0F, 0xF1, 0xFF, 0x10, 0x00, 0xF0,
    0x2F, 0xE0, 0x0F, 0x12, 0x00, 0x00, 0xFF, 0xF0, 0x0F, 0x00, 0x1F, 0x11, 0xE0, 0x12, 0x01, 0x1E,
    0x12, 0xF0, 0x32, 0x11, 0x00, 0x12, 0x00, 0x1E, 0xF1, 0x00, 0x11, 0x11, 0x00, 0x01, 0xD1, 0x10,
    0x11, 0x0D, 0x01, 0xEF, 0xFE, 0x00, 0xDD, 0x0F, 0xE0, 0xEF, 0xEF, 0xFF, 0x11, 0xFF, 0x10, 0xF0,
    0xFF, 0x10, 0xFF, 0x0F, 0xEF, 0xFF, 0xFF, 0x1F, 0xFF, 0xEF, 0x01, 0x00, 0x20, 0x11, 0x00, 0x10,
    0x02, 0xFF, 0x11, 0x12, 0x00, 0x11, 0x00, 0x11, 0x11, 0x0F, 0x11, 0xF1, 0x00, 0x01, 0xFE, 0xFF,
    0xE0, 0xEF, 0xFF, 0x10, 0xF0, 0x1E, 0xF1, 0xFE, 0x00, 0x01, 0xF0, 0x11, 0xF1, 0x10, 0x01, 0x00,
    0xF0, 0x10, 0xF1, 0x0F, 0x01, 0x00, 0x11, 0x1F, 0x11, 0xF1, 0xEE, 0xEF, 0x00, 0x00, 0x00, 0xFF,
    0x00, 0x00, 0x10, 0xF0, 0x00, 0xDF, 0xF0, 0xDD, 0x0E, 0xDE, 0xEE, 0xF0, 0x0F, 0x20, 0xE0, 0x10,
    0x12, 0x00, 0x02, 0xF0, 0x10, 0x12, 0xFF, 0x20, 0xF1, 0x0F, 0x00, 0xEF, 0x0F, 0x12, 0x10, 0x10,
    0xF1, 0x1F, 0xF0, 0xF0, 0xF0, 0xDF, 0x1C, 0xDF, 0xEC, 0xFF, 0xFF, 0xF0, 0xEF, 0xDE, 0x01, 0xF0,
    0x0E, 0xEF, 0x00, 0x11, 0x01, 0x1F, 0x21, 0x00, 0x10, 0x11, 0x10, 0x11, 0x00, 0x12, 0x00, 0x0F,
    0xFF, 0xF0, 0xF0, 0xFE, 0x10, 0xF1, 0xED, 0x00, 0xEE, 0x2F, 0x01, 0x00, 0x23, 0x11, 0x30, 0x22,
    0x10, 0x01, 0x01, 0x10, 0x00, 0x0F, 0xF0, 0xFF, 0x00, 0x11, 0x01, 0x10, 0x01, 0x10, 0x00, 0xDF,
    0x00, 0xF0, 0x0F, 0x00, 0xF0, 0x11, 0x01, 0x30, 0x12, 0x12, 0x21, 0x12, 0x11, 0x01, 0xF0, 0xFE,
    0x00, 0x20, 0x12, 0x00, 0x13, 0x11, 0x00, 0x10, 0x11, 0x0F, 0x11, 0xE0, 0x00, 0xFF, 0xEE, 0xFF,
    0xFF, 0xFE, 0xF0, 0x10, 0x01, 0xF0, 0x00, 0x00, 0x2F, 0x02, 0x00, 0x00, 0x01, 0xEF, 0x0F, 0x11,
    0xE0, 0xEE, 0x01, 0xFF, 0x1F, 0x01, 0xF0, 0x10, 0x02, 0x1E, 0x12, 0x00, 0x10, 0x12, 0x00, 0x10,
    0xF1, 0x1F, 0x01, 0xFE, 0x10, 0x00, 0x00, 0x11, 0x21, 0x01, 0x0F, 0x0F, 0xFF, 0xEF, 0x0F, 0xF0,
    0xFE, 0x00, 0x0F, 0x0F, 0x01, 0x0F, 0x21, 0x01, 0x01, 0x00, 0x11, 0x20, 0x00, 0x22, 0x02, 0x1F,
    0x12, 0xE1, 0xFF, 0xEF, 0x0F, 0x00, 0x10, 0xF1, 0xFF, 0x11, 0x00, 0x00, 0x11, 0x00, 0x0F, 0x01,
    0xEF, 0x00, 0xFF, 0x11, 0xE1, 0x20, 0xF1, 0x10, 0x00, 0x00, 0xF1, 0xFE, 0xEE, 0xFE, 0x00, 0xF0,
    0x00, 0xFF, 0xFE, 0x00, 0x00, 0x01, 0x00, 0x01, 0xFF, 0x1E, 0xFF, 0xFE, 0xDF, 0x0D, 0xDF, 0x0D,
    0xF0, 0xED, 0xEE, 0x0F, 0x21, 0x33, 0x00, 0x11, 0x21, 0x01, 0x10, 0x00, 0xEE, 0xFF, 0xFF, 0xDE,
    0x0E, 0x10, 0xE2, 0x00, 0xF0, 0x11, 0xE0, 0x1E, 0x01, 0xFF, 0x01, 0x00, 0x00, 0xF0, 0xF0, 0x01,
    0x00, 0x0E, 0xFF, 0x00, 0x01, 0xEF, 0x0E, 0x01, 0xFE, 0xE0, 0x0F, 0x1E, 0x01, 0x01, 0x00, 0x00,
    0x00, 0x00, 0xFF, 0x10, 0x01, 0x00, 0x00, 0x10, 0x10, 0x00, 0x32, 0xF2, 0x1F, 0x12, 0x0F, 0x20,
    0x00, 0x00, 0xEF, 0xDC, 0x0E, 0xFF, 0xF0, 0xF1, 0x00, 0x1F, 0xF0, 0x01, 0x0F, 0x10, 0x02, 0xFF,
    0x10, 0x01, 0x0F, 0x10, 0xF0, 0x0F, 0x00, 0x0F, 0x11, 0x00, 0x10, 0xEE, 0xF0, 0x0F, 0x10, 0xFF,
    0x00, 0x00, 0x01, 0x01, 0x10, 0x22, 0x01, 0xE1, 0xEF, 0x00, 0x00, 0x00, 0x0F, 0xF0, 0xFF, 0x01,
    0xF0, 0xFF, 0xED, 0xEE, 0xFF, 0x00, 0xE3, 0x1F, 0x31, 0x0F, 0x10, 0x01, 0x10, 0xDF, 0x01, 0xF0,
    0xFB, 0xFE, 0x10, 0xEF, 0x0F, 0x02, 0x00, 0x11, 0x00, 0x21, 0x11, 0x10, 0x20, 0x11, 0x21, 0x23,
    0x11, 0x01, 0x11, 0x00, 0x2F, 0x01, 0x10, 0x12, 0x11, 0x00, 0x00, 0xFE, 0x0F, 0xF0, 0xFF, 0xFF,
    0x00, 0x00, 0x01, 0x10, 0x21, 0xE1, 0xEE, 0x1F, 0xE2, 0x1F, 0x21, 0xEE, 0x20, 0xF1, 0x00, 0x0F,
    0x20, 0xF0, 0x11, 0x32, 0x12, 0x00, 0xF0, 0x0F, 0xFF, 0x0F, 0xEF, 0x0F, 0x0F, 0x1F, 0xE0, 0x10,
    0x11, 0xD2, 0x0E, 0x21, 0xDC, 0x1F, 0xE0, 0x0F, 0xFF, 0x21, 0xF1, 0x0E, 0xEF, 0xDE, 0xDE, 0xFE,
    0xF0, 0x00, 0x11, 0xFE, 0x00, 0xF0, 0x00, 0xEF, 0x00, 0x21, 0x00, 0x20, 0x01, 0x00, 0x00, 0x00,
    0x0F, 0x11, 0xEE, 0x10, 0x12, 0xF0, 0xDE, 0x00, 0xF0, 0x0E, 0x22, 0xF1, 0x11, 0x12, 0x12, 0x01,
    0x10, 0x0E, 0x11, 0xF2, 0xFE, 0x21, 0xFF, 0x00, 0xE0, 0x0F, 0xDF, 0x10, 0x00, 0xEE, 0xFE, 0xFE,
    0xED, 0x0F, 0xF1, 0x1F, 0x21, 0x0F, 0x11, 0xE1, 0xF0, 0xFE, 0xFF, 0x0F, 0xE0, 0x0E, 0x11, 0x0F,
    0x11, 0x11, 0x01, 0x00, 0x01, 0xF0, 0x00, 0x00, 0x00, 0x00, 0xF0, 0x20, 0xF1, 0xFF, 0x23, 0x01,
    0x1F, 0x11, 0xD0, 0xEE, 0x0F, 0xF1, 0xFF, 0x11, 0x00, 0xF0, 0x1F, 0x00, 0x11, 0x10, 0x01, 0xF0,
    0x10, 0x22, 0x00, 0x00, 0x10, 0x11, 0xE0, 0x01, 0xF0, 0x0D, 0x00, 0xFF, 0x11, 0x11, 0x20, 0x11,
    0xF1, 0x11, 0x00, 0x20, 0x01, 0x10, 0x12, 0x10, 0x02, 0x00, 0x01, 0xFF, 0x11, 0xE0, 0x0F, 0xFF,
    0x0E, 0xF0, 0xFE, 0x32, 0x12, 0x33, 0x12, 0x10, 0x22, 0x11, 0x00, 0x00, 0xE0, 0xF0, 0xEE, 0xED,
    0xFF, 0x1E, 0x22, 0x32, 0x00, 0x21, 0x03, 0x10, 0x11, 0x02, 0x00, 0x0E, 0x00, 0xF0, 0x11, 0x00,
    0x11, 0x0F, 0x00, 0xFD, 0x00, 0xDF, 0x0F, 0x00, 0xFE, 0x00, 0x00, 0x00, 0xEF, 0x12, 0xF0, 0x2F,
    0x11, 0x00, 0x0F, 0x00, 0xF1, 0x00, 0xF0, 0xF0, 0xFD, 0x01, 0x00, 0x11, 0x10, 0x01, 0x0F, 0x11,
    0x00, 0x10, 0xF0, 0xFD, 0x21, 0x02, 0x10, 0x00, 0x11, 0x11, 0x21, 0x10, 0x21, 0x11, 0x11, 0x01,
    0xF0, 0xF0, 0xF0, 0x0F, 0xF0, 0x00, 0xF0, 0x00, 0x00, 0x21, 0x11, 0x11, 0x12, 0xF0, 0xEE, 0x02,
    0xFF, 0x1F, 0x00, 0x00, 0x11, 0xF0, 0xF0, 0xFF, 0xEF, 0x01, 0x10, 0x11, 0x10, 0xF1, 0x00, 0x00,
    0x0F, 0xF0, 0xD0, 0xDF, 0xCD, 0x2B, 0x01, 0x31, 0x11, 0x00, 0x01, 0x00, 0xFF, 0x00, 0xFF, 0x0E,
    0xF0, 0xEF, 0x0E, 0x11, 0x02, 0x00, 0x2F, 0x11, 0xFF, 0x00, 0x00, 0x30, 0x11, 0x11, 0x02, 0xF0,
    0x10, 0x01, 0x0F, 0x10, 0x0F, 0xFF, 0x01, 0xF0, 0x00, 0xFF, 0xFF, 0xE1, 0xEE, 0xFD, 0xFE, 0x00,
    0xF0, 0x0F, 0x00, 0x00, 0xEF, 0x11, 0xF0, 0xEE, 0x1F, 0x11, 0x0F, 0x1F, 0xFF, 0x0F, 0xE0, 0xEE,
    0x0F, 0xFE, 0x0E, 0xD0, 0x01, 0x10, 0x00, 0x00, 0x11, 0x00, 0x10, 0x02, 0x10, 0x21, 0x10, 0x11,
    0x00, 0x0F, 0xFF, 0x00, 0x00, 0x0E, 0xFF, 0xF0, 0xEE, 0xFE, 0x0C, 0x00, 0xEF, 0x00, 0x0F, 0x12,
    0x00, 0x31, 0x0F, 0x10, 0xE1, 0xFE, 0xF0, 0xFD, 0xF0, 0x1E, 0x11, 0x12, 0x11, 0x11, 0x00, 0x00,
    0x00, 0x12, 0x01, 0x20, 0xF1, 0x0E, 0xEF, 0x10, 0xE1, 0xFF, 0x0F, 0x00, 0xF1, 0x00, 0x00, 0x00,
    0x01, 0x0F, 0xEE, 0xFE, 0x00, 0xDD, 0xFE, 0xFD, 0xFF, 0xF0, 0x0F, 0x10, 0x01, 0x11, 0x00, 0x0F,
    0x10, 0x02, 0x0F, 0x10, 0xFF, 0x0F, 0x0F, 0x10, 0xEF, 0x10, 0xD0, 0x1C, 0x00, 0x10, 0xF0, 0x10,
    0xF2, 0xEE, 0x0E, 0xEF, 0xDE, 0xFE, 0xFE, 0xDE, 0x00, 0xF0, 0x0E, 0x01, 0xFF, 0x11, 0xF0, 0x11,
    0x01, 0x10, 0x11, 0x01, 0xF0, 0x11, 0x20, 0x00, 0x01, 0x01, 0x12, 0x11, 0x21, 0x00, 0x11, 0x00,
    0x0F, 0x00, 0x00, 0x11, 0x01, 0x2F, 0x12, 0x11, 0x23, 0x12, 0x32, 0x1F, 0x11, 0x01, 0x01, 0x00,
    0x0F, 0xFF, 0x0F, 0xEE, 0xCC, 0xDD, 0xDE, 0xFC, 0xED, 0xCD, 0x01, 0x10, 0x00, 0x00, 0x00, 0x0F,
    0x10, 0x0F, 0x11, 0xE0, 0x32, 0xF2, 0x0D, 0x22, 0xE1, 0x11, 0x11, 0x0F, 0xF0, 0x11, 0xFE, 0x1F,
    0xE1, 0x1F, 0x11, 0x10, 0xF0, 0x1F, 0xF1, 0xED, 0x01, 0xEE, 0x0F, 0xE0, 0x10, 0xF0, 0x0F, 0x11,
    0x12, 0x12, 0x21, 0x11, 0x11, 0x01, 0x11, 0xF1, 0x10, 0x10, 0xFF, 0xE0, 0x01, 0xF1, 0x1E, 0xFF,
    0xEE, 0xE1, 0xCE, 0xEC, 0xDD, 0xCD, 0xFE, 0xFF, 0x0F, 0xFF, 0x00, 0x11, 0x01, 0xF0, 0x0F, 0x0F,
    0xED, 0xFE, 0xF0, 0x0F, 0xF0, 0x22, 0x12, 0xF0, 0x0F, 0x0F, 0x0F, 0x10, 0xF1, 0x10, 0x01, 0x01,
    0x00, 0x00, 0x11, 0x11, 0x01, 0xF0, 0xE0, 0xEE, 0x1F, 0xEE, 0xFE, 0x01, 0x00, 0x11, 0x01, 0xFF,
    0x1F, 0x00, 0x10, 0x1F, 0x11, 0xF0, 0x0F, 0xF0, 0xEE, 0xFF, 0x1D, 0x00, 0x00, 0xF0, 0x10, 0x12,
    0x01, 0x22, 0xF0, 0xFF, 0xDF, 0xAB, 0x9B, 0x11, 0xFE, 0x1D, 0xF0, 0xDF, 0x11, 0x11, 0x10, 0x11,
    0x32, 0xF0, 0x00, 0xF1, 0x10, 0x00, 0x00, 0x01, 0x00, 0xF0, 0xFF, 0x10, 0x00, 0x01, 0x11, 0x22,
    0xFF, 0x00, 0xFF, 0x00, 0x11, 0x22, 0x11, 0x03, 0x01, 0x0F, 0xFF, 0xDE, 0xEF, 0x00, 0x10, 0xF0,
    0x10, 0xF2, 0x31, 0x22, 0x12, 0x12, 0x11, 0xF0, 0xFF, 0x0F, 0xF0, 0xFF, 0xEF, 0xFE, 0xFE, 0xFF,
    0xE0, 0x0F, 0x00, 0xFE, 0x0F, 0xF1, 0xFF, 0x0F, 0xFF, 0x0F, 0xF2, 0xFF, 0x20, 0xF0, 0xFE, 0x01,
    0xE0, 0x0F, 0xEF, 0xFE, 0xFF, 0xEF, 0x0F, 0x00, 0x0F, 0xE1, 0x10, 0x01, 0x0F, 0x00, 0xF0, 0x21,
    0x22, 0x21, 0x11, 0x21, 0x01, 0xFF, 0xEF, 0x1F, 0xD0, 0xFD, 0xF0, 0x10, 0x10, 0xF1, 0xF0, 0x10,
    0x11, 0x21, 0x11, 0x11, 0xF1, 0x11, 0xF0, 0xFE, 0x20, 0x01, 0x00, 0x23, 0x02, 0x10, 0x21, 0x00,
    0x0F, 0x12, 0x11, 0x10, 0x12, 0xCF, 0x1B, 0x01, 0xDF, 0x0F, 0x00, 0xF1, 0x0F, 0x21, 0xFF, 0x0F,
    0x00, 0x11, 0x10, 0x11, 0x00, 0x0F, 0xE0, 0xDE, 0x0F, 0x0F, 0xEE, 0xFF, 0xDF, 0x11, 0x22, 0x42,
    0x13, 0xF0, 0x23, 0xF0, 0x1E, 0x00, 0x00, 0xFF, 0x0F, 0x11, 0xF1, 0xFF, 0x11, 0x00, 0x00, 0x01,
    0x11, 0x10, 0x1F, 0x11, 0x01, 0xFF, 0xFF, 0x0E, 0x0E, 0x11, 0x11, 0x32, 0x22, 0x02, 0x10, 0x01,
    0x01, 0x00, 0x00, 0xF0, 0x00, 0x01, 0x1F, 0x11, 0x00, 0x10, 0x00, 0x11, 0x11, 0x11, 0x01, 0x11,
    0x01, 0x20, 0x01, 0xFF, 0xFF, 0xFF, 0xFF, 0xFF, 0xEE, 0x0F, 0x01, 0xE0, 0xEE, 0xEE, 0x0F, 0x00,
    0xFE, 0xFF, 0xDF, 0xE0, 0xCD, 0xCC, 0xCB, 0xCD, 0xEE, 0xF0, 0xF0, 0xFF, 0xEE, 0x0F, 0xF0, 0xFF,
    0x10, 0xE0, 0xED, 0xEF, 0x0E, 0x00, 0xFF, 0x00, 0x1F, 0x01, 0x00, 0x11, 0x10, 0x22, 0x13, 0x11,
    0x11, 0x01, 0x00, 0x1F, 0xF0, 0xF0, 0x01, 0xFF, 0x2F, 0xF0, 0xE0, 0xFF, 0x0F, 0x1F, 0x22, 0x01,
    0x10, 0x01, 0x0F, 0x00, 0xFF, 0x11, 0x01, 0x00, 0x20, 0xF1, 0xFF, 0x12, 0x1F, 0x11, 0xF0, 0x21,
    0xF2, 0x10, 0x11, 0x0F, 0x12, 0x11, 0x11, 0x01, 0x00, 0x01, 0x1D, 0xF1, 0xEE, 0xF0, 0xF0, 0x11,
    0xFF, 0x0F, 0xF0, 0x0F, 0x11, 0x0F, 0x22, 0x11, 0x0F, 0x11, 0xFF, 0x11, 0xF0, 0x10, 0x11, 0x0F,
    0x1F, 0x21, 0xDD, 0x10, 0x01, 0x0E, 0x11, 0xF1, 0x00, 0x10, 0x11, 0x0F, 0x0E, 0x10, 0xD1, 0xFF,
    0x00, 0xFE, 0x10, 0x00, 0x0F, 0x01, 0xF0, 0x21, 0xF0, 0x1F, 0x02, 0xFF, 0x11, 0xE1, 0x10, 0x11,
    0x0F, 0x01, 0xF1, 0xF0, 0x0F, 0x11, 0x00, 0x1F, 0x22, 0x01, 0x00, 0x21, 0xE1, 0x1F, 0xF1, 0x0F,
    0x00, 0xEF, 0x0E, 0x22, 0xCD, 0x1E, 0x02, 0xFE, 0x21, 0x01, 0x0F, 0x11, 0xF0, 0x1F, 0xED, 0x20,
    0xE2, 0xED, 0x00, 0xF0, 0x0F, 0x00, 0xF0, 0x20, 0x01, 0xFF, 0x01, 0xF0, 0x00, 0x00, 0xF0, 0xFF,
    0xFF, 0x0F, 0xFE, 0x1F, 0xE3, 0x0E, 0x22, 0x21, 0x01, 0x11, 0x21, 0x02, 0x20, 0x22, 0xF1, 0x11,
    0x01, 0x12, 0x11, 0x01, 0xF0, 0xFF, 0x11, 0xFF, 0x1F, 0x11, 0x11, 0xFF, 0x00, 0x01, 0x00, 0x11,
    0x0E, 0xFF, 0xF0, 0x00, 0x00, 0x0F, 0x00, 0x00, 0x00, 0xEE, 0xFE, 0xEF, 0xFD, 0x00, 0xF0, 0xFE,
    0x01, 0x11, 0x01, 0x11, 0x01, 0x10, 0x01, 0xFE, 0xCE, 0xFF, 0xEE, 0xEE, 0xEE, 0xED, 0xEF, 0xFE,
    0x1F, 0x00, 0x42, 0x02, 0x11, 0x02, 0xF0, 0xEF, 0x01, 0x00, 0xFE, 0x00, 0xF0, 0x0F, 0x00, 0x11,
    0x22, 0x21, 0x0F, 0x00, 0xF0, 0xF0, 0xEF, 0x11, 0x00, 0x22, 0x21, 0x12, 0x21, 0x01, 0xFF, 0x11,
    0x21, 0x0F, 0x00, 0xD0, 0x00, 0xEE, 0x10, 0x22, 0xF0, 0x21, 0x12, 0xE0, 0x10, 0x00, 0x11, 0xF0,
    0x11, 0x11, 0x10, 0xF0, 0x10, 0xEE, 0x1F, 0x04, 0x01, 0xF0, 0x10, 0xF1, 0x00, 0x22, 0x01, 0x10,
    0x11, 0x00, 0x00, 0xF0, 0xFF, 0x00, 0xE0, 0xFE, 0xDE, 0x22, 0x01, 0x1F, 0x01, 0x21, 0x0F, 0x42,
    0xD2, 0xFF, 0xFF, 0x0F, 0x00, 0xF0, 0x0F, 0x00, 0x12, 0x0F, 0x00, 0x00, 0xF0, 0x10, 0xF0, 0x0F,
    0xF0, 0xF0, 0xFE, 0x0F, 0xF0, 0x10, 0x11, 0x33, 0x12, 0xF1, 0xF0, 0x01, 0x00, 0x00, 0x00, 0xF1,
    0xEE, 0xDD, 0xED, 0x0E, 0x10, 0x22, 0xDE, 0xFF, 0x01, 0x0F, 0x1F, 0x21, 0x01, 0x1E, 0x01, 0xEE,
    0xFF, 0xFF, 0xF0, 0xF0, 0x00, 0x00, 0x10, 0xF0, 0xEF, 0xFF, 0x02, 0xFE, 0x40, 0x33, 0x32, 0x10,
    0x00, 0xE0, 0x11, 0x11, 0xDF, 0xFE, 0x00, 0x00, 0xFF, 0x1F, 0x12, 0xF1, 0x00, 0x22, 0x01, 0x11,
    0x01, 0x11, 0x00, 0x22, 0xF0, 0x0F, 0xF0, 0xED, 0x11, 0x32, 0x13, 0x20, 0x43, 0x00, 0x1F, 0x02,
    0xF0, 0x10, 0x00, 0xFF, 0xEE, 0xFF, 0x10, 0xFF, 0x0F, 0x11, 0xFF, 0xFF, 0x01, 0x0F, 0xFF, 0xFF,
    0xFE, 0x01, 0xF0, 0x20, 0x01, 0xF0, 0x02, 0xF0, 0x2F, 0xF0, 0xFF, 0x13, 0xF0, 0x01, 0xEF, 0xFE,
    0x00, 0x10, 0x10, 0x01, 0x11, 0xFF, 0xFF, 0x0F, 0x22, 0x11, 0x12, 0x12, 0x0E, 0x1F, 0xF1, 0x00,
    0x21, 0x12, 0x00, 0x11, 0xEE, 0xFE, 0xF1, 0xFF, 0x00, 0xEE, 0xFF, 0xF0, 0x0F, 0x1F, 0x01, 0x10,
    0x10, 0xFF, 0xFF, 0x01, 0x00, 0x00, 0x11, 0x11, 0x01, 0x11, 0x12, 0x00, 0x21, 0xEF, 0xFF, 0xF0,
    0xFF, 0xDE, 0xF0, 0x00, 0x0F, 0xF0, 0xFF, 0x00, 0xDE, 0x1F, 0xF0, 0x0F, 0x01, 0x11, 0xE1, 0x0F,
    0x11, 0xFD, 0x12, 0xD1, 0x1F, 0xF0, 0x0F, 0x0F, 0x11, 0x32, 0x21, 0x22, 0x01, 0x10, 0x12, 0xFF,
    0x00, 0xF0, 0x0F, 0x00, 0x0F, 0x01, 0x00, 0x01, 0x00, 0x10, 0x0E, 0x00, 0x10, 0x01, 0x00, 0x00,
    0xF0, 0x1F, 0xEF, 0x0F, 0x00, 0xF0, 0x0F, 0x10, 0x01, 0xFE, 0x0F, 0x10, 0xF0, 0xEE, 0x01, 0x01,
    0x10, 0x10, 0x10, 0x11, 0xF0, 0x00, 0xF0, 0x21, 0xFF, 0x20, 0xF1, 0xDE, 0xDD, 0xEF, 0xFE, 0x10,
    0xFF, 0x00, 0x13, 0x11, 0x31, 0x10, 0x32, 0xFE, 0x0F, 0xF0, 0xFF, 0x00, 0xFF, 0xFF, 0xFD, 0xF0,
    0xDF, 0x11, 0xEF, 0x0F, 0xFF, 0x00, 0xFF, 0xFF, 0x00, 0x21, 0x11, 0x10, 0x11, 0x02, 0xF0, 0x00,
    0x0F, 0xFF, 0xFF, 0x00, 0x00, 0xFE, 0x00, 0x00, 0xFF, 0xEE, 0x01, 0xF0, 0x1F, 0x11, 0xE1, 0x00,
    0x00, 0x2E, 0x21, 0x00, 0xF1, 0x10, 0x01, 0xFF, 0x10, 0x00, 0x10, 0x12, 0x22, 0x12, 0x01, 0xF0,
    0xE0, 0xED, 0xEF, 0xEE, 0xFF, 0x2E, 0x11, 0xCE, 0x22, 0x12, 0x21, 0x11, 0x11, 0xFF, 0x00, 0xEF,
    0xDE, 0xFF, 0x11, 0x11, 0x01, 0x11, 0x01, 0x0F, 0x00, 0x00, 0x00, 0x01, 0x00, 0x11, 0xF2, 0x00,
    0xF1, 0xFF, 0x0F, 0xEF, 0x0F, 0xE0, 0x10, 0xF1, 0x2E, 0x12, 0xFF, 0xFF, 0x0F, 0xE0, 0x0F, 0xEF,
    0x0E, 0xE0, 0xFE, 0x00, 0xFF, 0x21, 0x10, 0x10, 0xF0, 0xEE, 0x12, 0x11, 0x11, 0x20, 0x32, 0x0F,
    0x11, 0xF2, 0x00, 0xF0, 0x01, 0x0F, 0xF0, 0xFF, 0xFF, 0x0D, 0x00, 0x1F, 0x12, 0x11, 0x32, 0x12,
    0x12, 0x12, 0x01, 0xFE, 0x00, 0xE0, 0x0F, 0x00, 0x1D, 0x33, 0x03, 0x30, 0x13, 0xFF, 0x00, 0x1F,
    0x11, 0x12, 0x00, 0x10, 0x11, 0x01, 0x12, 0x00, 0x2F, 0xFE, 0x0E, 0x22, 0xFE, 0x10, 0xFF, 0x10,
    0xE0, 0x31, 0x02, 0x1F, 0x01, 0x11, 0x00, 0x10, 0x02, 0x10, 0x01, 0xFF, 0xF0, 0x0E, 0x01, 0xE0,
    0x00, 0x10, 0xE1, 0x0E, 0xDF, 0xEF, 0xEF, 0xEE, 0x0F, 0x10, 0x10, 0x11, 0x11, 0x01, 0x22, 0xFF,
    0xEF, 0x1E, 0x01, 0x00, 0x11, 0x00, 0x11, 0xF0, 0x10, 0x00, 0x10, 0x01, 0xF0, 0xED, 0x00, 0x00,
    0x0F, 0x00, 0xF0, 0xF0, 0x0F, 0x1E, 0x00, 0xD0, 0x1F, 0x01, 0xC1, 0x0E, 0x31, 0xFE, 0x00, 0x00,
    0x00, 0xEF, 0x01, 0x00, 0xD1, 0xFE, 0x00, 0x11, 0x11, 0x20, 0x00, 0x00, 0xF1, 0x00, 0x11, 0x11,
    0x22, 0xEE, 0xDE, 0xFD, 0x00, 0x00, 0x11, 0x11, 0xF2, 0x0F, 0x11, 0x10, 0x00, 0xF0, 0xFF, 0x1F,
    0x00, 0xFE, 0x01, 0xFF, 0x0F, 0xEF, 0x0F, 0x00, 0x10, 0x21, 0x21, 0x23, 0x01, 0x01, 0x11, 0x00,
    0x0F, 0x1F, 0x00, 0x01, 0x00, 0x20, 0xF2, 0xFF, 0x10, 0xFF, 0x10, 0xE2, 0x1F, 0x00, 0xE0, 0xFF,
    0x00, 0x00, 0x12, 0x0F, 0xFF, 0xE0, 0xFE, 0xEE, 0xFE, 0xF0, 0xF0, 0x00, 0x11, 0x00, 0x10, 0x01,
    0x01, 0x10, 0x10, 0x10, 0x01, 0x01, 0xF1, 0x22, 0x11, 0x21, 0x01, 0xFF, 0x1E, 0x11, 0xE0, 0x0F,
    0x00, 0x0F, 0x00, 0xFF, 0x00, 0x00, 0x12, 0x21, 0xCF, 0xDC, 0x1F, 0xFE, 0x1F, 0xF2, 0xFF, 0x01,
    0xFE, 0xEF, 0xEE, 0xFE, 0x11, 0xED, 0x0F, 0xE1, 0x00, 0x11, 0x0F, 0x01, 0xF0, 0x10, 0x11, 0x12,
    0x21, 0xF1, 0xFF, 0xFE, 0xFF, 0xEF, 0xEF, 0x0F, 0x0F, 0xFE, 0x00, 0x01, 0x00, 0x00, 0x1F, 0x22,
    0xF0, 0x10, 0x10, 0xFE, 0xFF, 0x00, 0xFF, 0xFE, 0x12, 0xFF, 0x02, 0xF0, 0x1E, 0x11, 0x00, 0x00,
    0x00, 0x00, 0xEE, 0xFE, 0xFF, 0x0F, 0xEE, 0x21, 0x02, 0xF0, 0x0F, 0x10, 0xFE, 0x00, 0x20, 0x12,
    0xE0, 0x01, 0xF0, 0xFD, 0xEE, 0xFF, 0x0F, 0x11, 0xF1, 0x10, 0x11, 0x11, 0xF0, 0x30, 0x01, 0x21,
    0x01, 0x01, 0x10, 0x00, 0x00, 0xFF, 0x0F, 0xE1, 0x11, 0x11, 0x20, 0x33, 0xD2, 0xCB, 0xCB, 0xF0,
    0xDE, 0x2D, 0x22, 0xFF, 0x11, 0x12, 0x01, 0xEF, 0x30, 0x0E, 0x10, 0x11, 0xFF, 0xFF, 0x10, 0x0F,
    0x0E, 0x20, 0xE1, 0x00, 0xEF, 0x0D, 0xF0, 0xFF, 0x00, 0x00, 0xFF, 0x20, 0x11, 0xFE, 0x00, 0xF0,
    0xEF, 0x2F, 0x00, 0x11, 0xF0, 0x11, 0x22, 0x11, 0x0F, 0x20, 0x02, 0x00, 0xF0, 0x10, 0x01,
};

const uint8_t linear_0_bias[] PROGMEM = {
    0x00, 0x00, 0x00, 0x00, 0x00, 0x00, 0x00, 0x00, 0x00, 0x00, 0x00, 0x00, 0x00, 0x00, 0x00, 0x00,
    0x00, 0x00, 0x00, 0x00, 0x00, 0x00, 0x00, 0x00, 0x00, 0x00, 0x00, 0x00, 0x00, 0x00, 0x00, 0x00,
    0x00, 0x00, 0x00, 0x00, 0x00, 0x00, 0x00, 0x00, 0x00, 0x00, 0x00, 0x00, 0x00, 0x00, 0x00, 0x00,
    0x00, 0x00, 0x00, 0x00, 0x00, 0x00, 0x00, 0x00, 0x00, 0x00, 0x00, 0x00, 0x01, 0x00, 0x00, 0x00,
    0x01, 0x00, 0x00, 0x00, 0xFF, 0xFF, 0xFF, 0xFF, 0x00, 0x00, 0x00, 0x00, 0x00, 0x00, 0x00, 0x00,
    0x00, 0x00, 0x00, 0x00, 0x00, 0x00, 0x00, 0x00, 0x00, 0x00, 0x00, 0x00, 0x00, 0x00, 0x00, 0x00,
    0x00, 0x00, 0x00, 0x00, 0x00, 0x00, 0x00, 0x00, 0x00, 0x00, 0x00, 0x00, 0x01, 0x00, 0x00, 0x00,
    0x00, 0x00, 0x00, 0x00,
};

const uint8_t linear_0_output_scale[] = {
    0x0B, 0x04, 0xB9, 0x40,
};

const uint8_t linear_0_output_zero_point[] = {
    0x03,
};

const uint8_t linear_0_input_zero_point[] = {
    0x00,
};

const uint8_t linear_0_bias_scale[] = {
    0xAC, 0xC9, 0x7B, 0x3E,
};

const uint8_t linear_1_weight[] PROGMEM = {
    0x0E, 0xC1, 0x5D, 0x1F, 0xF0, 0x22, 0xBF, 0x21, 0x1B, 0x20, 0x2C, 0xB2, 0xA0, 0x33, 0x1B, 0xFF,
    0x1D, 0x0D, 0xD4, 0xF4, 0xDD, 0x2E, 0x64, 0xDC, 0x11, 0x00, 0xE2, 0xFD, 0xC3, 0xC2, 0xD1, 0x0D,
    0xD3, 0xF3, 0x1F, 0xDF, 0xB0, 0x40, 0x31, 0x31, 0x06, 0x3E, 0xCF, 0x4E, 0x2B, 0xD1, 0x2E, 0xCD,
    0xD3, 0xD2, 0xF1, 0xDE, 0xFE, 0x30, 0xDD, 0xDD, 0xE2, 0x2E, 0x3F, 0x4A, 0xE2, 0xF1, 0x1E, 0xC1,
    0xEF, 0xC0, 0xDF, 0xB1, 0x2D, 0x4D, 0xB3, 0xFC, 0xD0, 0x31, 0xD0, 0xF2, 0x1F, 0x2F, 0x13, 0x14,
    0xC0, 0xBF, 0xE0, 0xFF, 0xEF, 0x10, 0xF1, 0x2F, 0xA1, 0xFF, 0xD0, 0xC0, 0xC0, 0xE4, 0x02, 0x5D,
    0xED, 0x0C, 0xF1, 0x22, 0x30, 0x2C, 0xBB, 0x1D, 0x22, 0x0D, 0x0E, 0xFE, 0xD3, 0x41, 0x0D, 0x1D,
    0xFF, 0x02, 0x33, 0xE9, 0x10, 0x02, 0xEB, 0x0F, 0xC0, 0x0C, 0x1F, 0x00, 0xEB, 0xE4, 0xDF, 0xE0,
    0x0C, 0x0E, 0xB3, 0xEE, 0x24, 0xB2, 0x1F, 0x11, 0x2F, 0xC1, 0x0F, 0x0D, 0x1D, 0xC0, 0x3E, 0xFC,
    0x4F,
};

const uint8_t linear_1_bias[] PROGMEM = {
    0x00, 0x00, 0x00, 0x00, 0x00, 0x00, 0x00, 0x00, 0x00, 0x00, 0x00, 0x00, 0x00, 0x00, 0x00, 0x00,
    0x00, 0x00, 0x00, 0x00, 0x00, 0x00, 0x00, 0x00, 0x00, 0x00, 0x00, 0x00, 0x00, 0x00, 0x00, 0x00,
    0x00, 0x00, 0x00, 0x00, 0x00, 0x00, 0x00, 0x00,
};

const uint8_t linear_1_output_scale[] = {
    0x72, 0x5D, 0x2F, 0x40,
};

const uint8_t linear_1_output_zero_point[] = {
    0x00,
};

const uint8_t linear_1_input_zero_point[] = {
    0x03,
};

const uint8_t linear_1_bias_scale[] = {
    0x34, 0x15, 0x0C, 0x3F,
};
